<unk>	0
<s>	0
</s>	0
he	-0
▁t	-1
▁a	-2
▁s	-3
▁w	-4
▁the	-5
nd	-6
ed	-7
▁b	-8
▁to	-9
in	-10
▁and	-11
▁h	-12
▁f	-13
▁wa	-14
it	-15
re	-16
ou	-17
▁T	-18
er	-19
▁l	-20
▁p	-21
▁c	-22
▁was	-23
▁d	-24
▁he	-25
ay	-26
im	-27
ar	-28
▁g	-29
▁m	-30
▁o	-31
is	-32
▁The	-33
ing	-34
at	-35
ll	-36
om	-37
▁n	-38
▁sa	-39
id	-40
▁ha	-41
le	-42
▁S	-43
nt	-44
▁th	-45
▁it	-46
et	-47
or	-48
on	-49
▁in	-50
ow	-51
ver	-52
il	-53
an	-54
ce	-55
st	-56
▁we	-57
▁e	-58
▁"	-59
▁O	-60
am	-61
ot	-62
▁H	-63
ri	-64
▁On	-65
▁her	-66
▁be	-67
ld	-68
ir	-69
▁u	-70
▁r	-71
▁He	-72
ked	-73
▁I	-74
▁y	-75
▁pl	-76
▁said	-77
▁day	-78
ig	-79
ke	-80
▁She	-81
pp	-82
ut	-83
▁his	-84
ith	-85
▁she	-86
▁with	-87
▁so	-88
ve	-89
▁of	-90
▁st	-91
▁Tim	-92
itt	-93
▁play	-94
oo	-95
her	-96
very	-97
▁you	-98
al	-99
▁that	-100
▁had	-101
end	-102
ould	-103
ck	-104
▁up	-105
un	-106
▁they	-107
se	-108
▁happ	-109
ad	-110
▁B	-111
ime	-112
ittle	-113
▁sh	-114
ound	-115
▁fri	-116
en	-117
▁L	-118
▁sm	-119
▁time	-120
▁friend	-121
▁there	-122
▁ne	-123
▁big	-124
▁little	-125
▁on	-126
▁bo	-127
▁li	-128
ter	-129
▁A	-130
▁for	-131
▁happy	-132
out	-133
▁One	-134
▁k	-135
ved	-136
▁Once	-137
▁re	-138
▁They	-139
▁very	-140
el	-141
ch	-142
ht	-143
ug	-144
▁want	-145
all	-146
ome	-147
▁saw	-148
ec	-149
ily	-150
um	-151
▁J	-152
ore	-153
ake	-154
amed	-155
▁upon	-156
ab	-157
my	-158
ill	-159
▁went	-160
▁wh	-161
▁not	-162
ie	-163
ly	-164
▁It	-165
▁an	-166
▁named	-167
▁sp	-168
▁were	-169
us	-170
▁but	-171
ic	-172
ain	-173
ide	-174
▁all	-175
ry	-176
▁as	-177
."	-178
▁could	-179
lp	-180
▁too	-181
▁help	-182
!"	-183
▁friends	-184
irl	-185
▁lo	-186
▁loo	-187
▁girl	-188
▁wanted	-189
get	-190
▁him	-191
▁out	-192
ack	-193
iled	-194
ep	-195
ind	-196
es	-197
ard	-198
hen	-199
round	-200
▁E	-201
hing	-202
▁smiled	-203
ame	-204
fu	-205
way	-206
▁M	-207
hed	-208
▁ex	-209
gether	-210
are	-211
rom	-212
▁at	-213
▁fl	-214
ro	-215
ght	-216
ree	-217
ace	-218
ark	-219
ear	-220
ast	-221
▁Lily	-222
ful	-223
▁go	-224
▁sad	-225
▁loved	-226
▁together	-227
omet	-228
▁mom	-229
▁somet	-230
?"	-231
▁would	-232
▁W	-233
elt	-234
▁ag	-235
▁al	-236
▁boy	-237
▁looked	-238
ur	-239
▁do	-240
▁kn	-241
▁se	-242
▁felt	-243
▁something	-244
▁j	-245
ood	-246
ted	-247
▁park	-248
▁them	-249
▁asked	-250
▁found	-251
▁around	-252
ag	-253
▁cl	-254
ther	-255
▁can	-256
▁fun	-257
▁back	-258
▁co	-259
▁wor	-260
▁other	-261
ue	-262
ave	-263
▁po	-264
▁bir	-265
▁home	-266
▁small	-267
▁water	-268
one	-269
▁So	-270
▁did	-271
▁bird	-272
▁tree	-273
▁again	-274
dy	-275
pl	-276
▁F	-277
eci	-278
▁br	-279
▁is	-280
▁cat	-281
▁ran	-282
▁playing	-283
ong	-284
side	-285
▁But	-286
▁new	-287
ecial	-288
▁from	-289
▁special	-290
aug	-291
ited	-292
▁toy	-293
▁star	-294
ny	-295
ust	-296
ouse	-297
ought	-298
▁boat	-299
▁like	-300
▁when	-301
▁lived	-302
▁started	-303
▁no	-304
▁sun	-305
▁played	-306
▁thought	-307
ice	-308
▁fe	-309
▁car	-310
▁exc	-311
▁away	-312
▁good	-313
▁their	-314
▁â	-315
abb	-316
ick	-317
oom	-318
uch	-319
able	-320
ower	-321
▁get	-322
▁then	-323
▁flower	-324
▁excited	-325
ss	-326
uc	-327
ish	-328
lly	-329
own	-330
ush	-331
▁ab	-332
imal	-333
▁lot	-334
▁this	-335
▁took	-336
▁every	-337
▁animal	-338
op	-339
pt	-340
ud	-341
hat	-342
▁ch	-343
fter	-344
▁bec	-345
▁see	-346
▁str	-347
▁war	-348
▁liked	-349
ff	-350
▁C	-351
ade	-352
ned	-353
our	-354
ump	-355
▁gr	-356
itty	-357
king	-358
pped	-359
▁And	-360
▁wal	-361
▁who	-362
▁care	-363
▁have	-364
▁made	-365
▁kitty	-366
▁never	-367
▁animals	-368
ac	-369
▁q	-370
rou	-371
▁ho	-372
▁ke	-373
▁me	-374
ight	-375
▁bug	-376
▁got	-377
▁kne	-378
▁pre	-379
▁When	-380
▁fast	-381
▁feel	-382
▁make	-383
▁some	-384
iz	-385
ky	-386
▁N	-387
ure	-388
▁am	-389
▁sn	-390
ways	-391
▁dad	-392
▁old	-393
abbit	-394
▁fish	-395
▁laug	-396
▁about	-397
▁thing	-398
▁always	-399
▁rabbit	-400
TM	-401
ady	-402
eep	-403
ucy	-404
▁sc	-405
▁tw	-406
ecid	-407
nder	-408
▁Sam	-409
▁gum	-410
▁int	-411
▁pic	-412
▁put	-413
▁run	-414
▁Lucy	-415
▁lear	-416
▁show	-417
▁take	-418
▁what	-419
ecided	-420
▁couldn	-421
▁decided	-422
ous	-423
udd	-424
ull	-425
▁le	-426
ream	-427
▁Tom	-428
▁box	-429
▁gre	-430
▁Then	-431
▁best	-432
▁expl	-433
▁your	-434
▁house	-435
▁outside	-436
au	-437
ang	-438
▁Jo	-439
▁cr	-440
ared	-441
ause	-442
room	-443
▁bot	-444
▁clo	-445
▁how	-446
▁man	-447
▁off	-448
▁one	-449
▁came	-450
▁ever	-451
▁into	-452
▁knew	-453
▁much	-454
▁than	-455
aw	-456
az	-457
th	-458
ite	-459
lie	-460
▁In	-461
▁ow	-462
iced	-463
illy	-464
ried	-465
▁Amy	-466
▁bear	-467
▁more	-468
▁need	-469
▁share	-470
▁because	-471
▁learned	-472
▁noticed	-473
ax	-474
▁D	-475
ail	-476
ant	-477
ber	-478
ost	-479
▁bl	-480
▁my	-481
▁ve	-482
ntil	-483
ommy	-484
▁Jim	-485
▁are	-486
udden	-487
▁call	-488
▁down	-489
▁find	-490
▁fore	-491
▁kept	-492
▁long	-493
▁told	-494
▁until	-495
▁picked	-496
▁things	-497
▁laughed	-498
as	-499
av	-500
lf	-501
▁v	-502
ary	-503
ble	-504
ise	-505
ist	-506
uck	-507
ning	-508
▁Sue	-509
▁end	-510
▁hug	-511
▁two	-512
right	-513
▁Elly	-514
▁both	-515
▁cher	-516
▁just	-517
▁lots	-518
▁snow	-519
▁Every	-520
uddenly	-521
▁forest	-522
▁ground	-523
▁thanked	-524
ia	-525
if	-526
lu	-527
we	-528
Yes	-529
ach	-530
ect	-531
ile	-532
ive	-533
▁As	-534
unny	-535
▁Joe	-536
▁Mia	-537
▁dog	-538
▁way	-539
other	-540
▁Jill	-541
▁clos	-542
▁gave	-543
▁jump	-544
▁know	-545
▁look	-546
▁pret	-547
▁word	-548
▁after	-549
▁bunny	-550
▁leave	-551
▁called	-552
,"	-553
ak	-554
alk	-555
ase	-556
ate	-557
ffy	-558
urp	-559
▁ad	-560
▁by	-561
▁qu	-562
▁sl	-563
roud	-564
self	-565
ving	-566
▁His	-567
▁any	-568
▁bet	-569
▁spe	-570
▁try	-571
▁Jack	-572
▁crab	-573
▁game	-574
▁lake	-575
▁pain	-576
▁room	-577
▁shop	-578
▁wait	-579
▁catch	-580
▁proud	-581
▁scared	-582
▁happily	-583
me	-584
Let	-585
TMs	-586
You	-587
ank	-588
ess	-589
ied	-590
mer	-591
ook	-592
▁bu	-593
▁if	-594
▁wo	-595
here	-596
inky	-597
irst	-598
rior	-599
▁don	-600
▁ice	-601
▁let	-602
▁mag	-603
▁sto	-604
▁tow	-605
▁wat	-606
luffy	-607
plied	-608
▁Beep	-609
▁lady	-610
▁over	-611
▁race	-612
▁real	-613
▁will	-614
▁Binky	-615
▁heard	-616
▁tried	-617
▁cherry	-618
▁others	-619
▁replied	-620
▁walking	-621
▁warrior	-622
Th	-623
gh	-624
ip	-625
ere	-626
iny	-627
lla	-628
oll	-629
ton	-630
▁ar	-631
That	-632
alth	-633
ened	-634
eper	-635
idea	-636
iece	-637
urpr	-638
▁Fin	-639
▁Now	-640
▁bad	-641
▁bed	-642
▁dre	-643
▁eve	-644
▁far	-645
▁met	-646
▁owl	-647
▁yum	-648
arden	-649
▁Ella	-650
▁Mary	-651
▁amaz	-652
▁each	-653
▁full	-654
▁hand	-655
▁idea	-656
▁stor	-657
keeper	-658
▁After	-659
▁Mommy	-660
▁Timmy	-661
▁being	-662
▁mouse	-663
▁piece	-664
▁right	-665
▁still	-666
▁surpr	-667
▁Fluffy	-668
▁better	-669
▁button	-670
▁closer	-671
▁garden	-672
▁should	-673
▁strang	-674
▁wonder	-675
▁Suddenly	-676
▁shopkeeper	-677
ah	-678
ix	-679
ob	-680
ane	-681
aut	-682
ell	-683
har	-684
hes	-685
iff	-686
igh	-687
kin	-688
lew	-689
ool	-690
▁Bl	-691
▁en	-692
▁pe	-693
▁tr	-694
arah	-695
ched	-696
ueen	-697
usie	-698
▁Let	-699
▁fam	-700
▁fin	-701
▁its	-702
▁now	-703
▁per	-704
▁sky	-705
Thank	-706
aught	-707
cream	-708
pping	-709
▁Char	-710
▁From	-711
▁Jane	-712
▁ball	-713
▁diff	-714
▁hair	-715
▁hole	-716
▁kind	-717
▁mush	-718
▁pick	-719
▁pole	-720
▁pump	-721
▁soon	-722
▁tast	-723
▁toys	-724
▁Bloom	-725
▁Sarah	-726
▁Susie	-727
▁brush	-728
▁daddy	-729
▁green	-730
▁queen	-731
▁quick	-732
▁under	-733
▁yummy	-734
▁family	-735
▁leaves	-736
▁realiz	-737
▁walked	-738
▁Charlie	-739
▁careful	-740
▁painter	-741
▁pumpkin	-742
▁mushroom	-743
fe	-744
ft	-745
pe	-746
ty	-747
ye	-748
▁G	-749
and	-750
ass	-751
est	-752
igz	-753
led	-754
oop	-755
ort	-756
owd	-757
▁em	-758
▁gh	-759
auti	-760
eddy	-761
enny	-762
fore	-763
usic	-764
▁Max	-765
▁cle	-766
▁dis	-767
▁fly	-768
▁ste	-769
▁why	-770
▁win	-771
▁wis	-772
althy	-773
epend	-774
igzag	-775
ulled	-776
▁Bear	-777
▁deep	-778
▁didn	-779
▁even	-780
▁hard	-781
▁hoop	-782
▁near	-783
▁pond	-784
▁slow	-785
▁tail	-786
▁town	-787
▁vest	-788
▁warm	-789
▁wear	-790
▁wind	-791
▁Benny	-792
▁Jimmy	-793
▁chalk	-794
▁dream	-795
▁first	-796
▁ghost	-797
▁mommy	-798
▁music	-799
▁place	-800
▁sound	-801
▁store	-802
▁teddy	-803
▁Little	-804
▁before	-805
▁faster	-806
▁having	-807
▁inside	-808
▁mother	-809
▁pulled	-810
▁amazing	-811
▁flowers	-812
▁himself	-813
▁running	-814
▁strange	-815
ependable	-816
▁wonderful	-817
It	-818
No	-819
ct	-820
sy	-821
▁z	-822
Can	-823
Don	-824
age	-825
anc	-826
bye	-827
enc	-828
ged	-829
irt	-830
mem	-831
nts	-832
oon	-833
oud	-834
udy	-835
yes	-836
▁To	-837
▁im	-838
▁wr	-839
What	-840
ally	-841
ayak	-842
fect	-843
ious	-844
ised	-845
orry	-846
ount	-847
owed	-848
ster	-849
ting	-850
▁Nor	-851
▁com	-852
▁del	-853
▁ear	-854
▁fav	-855
▁flo	-856
▁fro	-857
▁red	-858
▁rel	-859
▁tre	-860
▁tur	-861
▁wet	-862
ached	-863
aring	-864
oment	-865
owder	-866
▁coin	-867
▁cold	-868
▁come	-869
▁eyes	-870
▁flew	-871
▁lost	-872
▁many	-873
▁most	-874
▁rake	-875
▁safe	-876
▁thin	-877
member	-878
▁brown	-879
▁kayak	-880
▁magic	-881
▁metal	-882
▁sorry	-883
▁speed	-884
▁story	-885
▁study	-886
autiful	-887
▁became	-888
▁jumped	-889
▁moment	-890
▁powder	-891
▁pretty	-892
▁bedroom	-893
▁differe	-894
▁explore	-895
▁goodbye	-896
▁perfect	-897
▁quickly	-898
▁reached	-899
▁surprise	-900
▁beautiful	-901
▁Dependable	-902
Hi	-903
la	-904
nn	-905
sp	-906
xt	-907
TMt	-908
ale	-909
day	-910
hel	-911
idd	-912
izz	-913
oup	-914
row	-915
sed	-916
ves	-917
▁Em	-918
▁Gr	-919
▁fr	-920
▁mo	-921
▁un	-922
azor	-923
cket	-924
ient	-925
indy	-926
isit	-927
nnie	-928
ours	-929
reed	-930
sent	-931
weet	-932
▁You	-933
▁bar	-934
▁che	-935
▁col	-936
▁cut	-937
▁eat	-938
▁mor	-939
▁own	-940
▁pus	-941
▁use	-942
ables	-943
achel	-944
apped	-945
astry	-946
encil	-947
fully	-948
lease	-949
oring	-950
rough	-951
▁Bill	-952
▁Nora	-953
▁been	-954
▁book	-955
▁bush	-956
▁card	-957
▁clum	-958
▁done	-959
▁face	-960
▁give	-961
▁here	-962
▁keep	-963
▁loud	-964
▁nice	-965
▁nose	-966
▁pare	-967
▁pour	-968
▁prom	-969
▁seen	-970
▁soup	-971
▁yard	-972
▁Annie	-973
▁Cindy	-974
▁Emily	-975
▁Grace	-976
▁Tilly	-977
▁birds	-978
▁brave	-979
▁dress	-980
▁flame	-981
▁float	-982
▁going	-983
▁night	-984
▁razor	-985
▁ready	-986
▁relax	-987
▁shiny	-988
▁shirt	-989
▁stove	-990
▁sunny	-991
▁sweet	-992
▁veget	-993
▁visit	-994
▁while	-995
▁wrong	-996
▁coming	-997
▁needle	-998
▁pastry	-999
▁pencil	-1000
▁pocket	-1001
▁showed	-1002
▁feeling	-1003
▁hopping	-1004
▁parents	-1005
▁present	-1006
▁smaller	-1007
▁through	-1008
▁watched	-1009
▁everyone	-1010
▁realized	-1011
▁remember	-1012
▁carefully	-1013
▁different	-1014
▁exploring	-1015
▁vegetables	-1016
Do	-1017
Wh	-1018
so	-1019
ze	-1020
▁-	-1021
awy	-1022
bed	-1023
cro	-1024
eer	-1025
ert	-1026
inu	-1027
ola	-1028
per	-1029
pot	-1030
pty	-1031
ret	-1032
rin	-1033
uel	-1034
uri	-1035
wed	-1036
▁At	-1037
▁We	-1038
▁fo	-1039
▁gl	-1040
▁ro	-1041
▁sw	-1042
▁te	-1043
ctop	-1044
ighb	-1045
oice	-1046
oney	-1047
port	-1048
ries	-1049
roke	-1050
rove	-1051
ures	-1052
▁All	-1053
▁Bob	-1054
▁Her	-1055
▁beg	-1056
▁beh	-1057
▁dry	-1058
▁fix	-1059
▁hat	-1060
▁hur	-1061
▁mat	-1062
▁pat	-1063
▁sch	-1064
▁sec	-1065
▁spr	-1066
▁tri	-1067
Mommy	-1068
abbed	-1069
astle	-1070
ather	-1071
ature	-1072
awyer	-1073
ching	-1074
cross	-1075
inued	-1076
ished	-1077
orite	-1078
outed	-1079
rived	-1080
spect	-1081
▁Lola	-1082
▁Spot	-1083
▁also	-1084
▁case	-1085
▁cont	-1086
▁fall	-1087
▁fell	-1088
▁fill	-1089
▁foll	-1090
▁food	-1091
▁free	-1092
▁frog	-1093
▁fuel	-1094
▁gone	-1095
▁grew	-1096
▁hide	-1097
▁list	-1098
▁live	-1099
▁love	-1100
▁must	-1101
▁prin	-1102
▁ride	-1103
▁sear	-1104
▁soft	-1105
▁sure	-1106
aughty	-1107
ctopus	-1108
urious	-1109
▁broke	-1110
▁drove	-1111
▁empty	-1112
▁frame	-1113
▁money	-1114
▁silly	-1115
▁taste	-1116
▁touch	-1117
▁whale	-1118
▁words	-1119
▁worry	-1120
portant	-1121
▁across	-1122
▁castle	-1123
▁clumsy	-1124
▁farmer	-1125
▁helped	-1126
▁hopped	-1127
▁lawyer	-1128
▁needed	-1129
▁neighb	-1130
▁pieces	-1131
▁school	-1132
▁shared	-1133
▁weight	-1134
▁wishes	-1135
▁arrived	-1136
▁explain	-1137
▁grabbed	-1138
▁naughty	-1139
▁octopus	-1140
▁pretend	-1141
▁shouted	-1142
▁stepped	-1143
▁Together	-1144
▁favorite	-1145
▁finished	-1146
▁promised	-1147
▁continued	-1148
▁important	-1149
be	-1150
co	-1151
dd	-1152
hn	-1153
jo	-1154
lc	-1155
ng	-1156
▁'	-1157
?".	-1158
Why	-1159
ape	-1160
bur	-1161
bwe	-1162
ckl	-1163
cut	-1164
ers	-1165
gly	-1166
ies	-1167
ild	-1168
ilk	-1169
joy	-1170
med	-1171
net	-1172
ors	-1173
ute	-1174
▁op	-1175
▁or	-1176
addy	-1177
ancy	-1178
ater	-1179
bble	-1180
bweb	-1181
dded	-1182
dest	-1183
ears	-1184
elly	-1185
ired	-1186
mmer	-1187
more	-1188
ople	-1189
ough	-1190
peat	-1191
vent	-1192
▁Wil	-1193
▁ate	-1194
▁cre	-1195
▁mix	-1196
▁mon	-1197
▁mum	-1198
▁pol	-1199
▁pro	-1200
▁sis	-1201
▁tie	-1202
▁zip	-1203
aking	-1204
angle	-1205
awber	-1206
iddle	-1207
izzie	-1208
lieve	-1209
river	-1210
thing	-1211
where	-1212
▁John	-1213
▁able	-1214
▁blue	-1215
▁bugs	-1216
▁cool	-1217
▁dark	-1218
▁drew	-1219
▁ears	-1220
▁grow	-1221
▁hear	-1222
▁heav	-1223
▁hurt	-1224
▁knee	-1225
▁less	-1226
▁milk	-1227
▁mind	-1228
▁next	-1229
▁pict	-1230
▁poin	-1231
▁rain	-1232
▁roll	-1233
▁sack	-1234
▁spid	-1235
▁tiny	-1236
▁ugly	-1237
▁welc	-1238
▁wine	-1239
▁work	-1240
aceful	-1241
cklace	-1242
indeer	-1243
▁Billy	-1244
▁Daddy	-1245
▁alert	-1246
▁along	-1247
▁arrow	-1248
▁began	-1249
▁black	-1250
▁bloom	-1251
▁build	-1252
▁chain	-1253
▁clean	-1254
▁close	-1255
▁count	-1256
▁delic	-1257
▁fancy	-1258
▁flute	-1259
▁grass	-1260
▁hands	-1261
▁hours	-1262
▁moral	-1263
▁print	-1264
▁scary	-1265
▁shore	-1266
▁slide	-1267
▁smile	-1268
▁snail	-1269
▁spent	-1270
▁spray	-1271
▁stuck	-1272
▁think	-1273
▁three	-1274
▁trees	-1275
▁voice	-1276
▁white	-1277
▁young	-1278
▁Lizzie	-1279
▁Wilbur	-1280
▁agreed	-1281
▁barber	-1282
▁behind	-1283
▁bubble	-1284
▁caught	-1285
▁chewed	-1286
▁cobweb	-1287
▁filled	-1288
▁gather	-1289
▁hammer	-1290
▁hugged	-1291
▁longer	-1292
▁magnet	-1293
▁middle	-1294
▁modest	-1295
▁nature	-1296
▁nodded	-1297
▁opened	-1298
▁people	-1299
▁please	-1300
▁sister	-1301
▁smelly	-1302
▁strong	-1303
▁tasted	-1304
▁turned	-1305
▁waited	-1306
▁worked	-1307
▁anymore	-1308
▁balloon	-1309
▁believe	-1310
▁brother	-1311
▁clapped	-1312
▁curious	-1313
▁haircut	-1314
▁healthy	-1315
▁helpful	-1316
▁helping	-1317
▁herself	-1318
▁magical	-1319
▁monster	-1320
▁respect	-1321
▁stopped	-1322
▁wealthy	-1323
▁Everyone	-1324
▁followed	-1325
▁friendly	-1326
▁listened	-1327
▁necklace	-1328
▁reindeer	-1329
▁strawber	-1330
▁suddenly	-1331
▁triangle	-1332
▁remembered	-1333
".	-1334
Oh	-1335
bo	-1336
br	-1337
gn	-1338
hi	-1339
io	-1340
li	-1341
sh	-1342
ul	-1343
€.	-1344
air	-1345
arr	-1346
ele	-1347
gry	-1348
his	-1349
icy	-1350
ier	-1351
iet	-1352
ign	-1353
imb	-1354
inn	-1355
les	-1356
lse	-1357
oke	-1358
ond	-1359
ugh	-1360
▁av	-1361
▁ru	-1362
▁su	-1363
▁zi	-1364
Hell	-1365
aced	-1366
adio	-1367
adow	-1368
ance	-1369
ants	-1370
ards	-1371
ated	-1372
aybe	-1373
barr	-1374
blem	-1375
cage	-1376
cogn	-1377
gust	-1378
imes	-1379
ined	-1380
lves	-1381
oman	-1382
uick	-1383
unch	-1384
used	-1385
vice	-1386
ward	-1387
yard	-1388
▁Can	-1389
▁End	-1390
▁Oli	-1391
▁adm	-1392
▁anc	-1393
▁bit	-1394
▁bus	-1395
▁buy	-1396
▁fit	-1397
▁fox	-1398
▁gar	-1399
▁gun	-1400
▁hid	-1401
▁hig	-1402
▁hor	-1403
▁hot	-1404
▁hum	-1405
▁icy	-1406
▁job	-1407
▁kis	-1408
▁mis	-1409
▁mud	-1410
▁pot	-1411
▁ref	-1412
▁sat	-1413
▁sea	-1414
▁sil	-1415
▁tal	-1416
▁top	-1417
▁wag	-1418
▁wip	-1419
Hello	-1420
assed	-1421
ceive	-1422
eared	-1423
elebr	-1424
ining	-1425
inner	-1426
retch	-1427
sting	-1428
ually	-1429
vered	-1430
▁Just	-1431
▁Soon	-1432
▁That	-1433
▁This	-1434
▁What	-1435
▁bott	-1436
▁cake	-1437
▁craw	-1438
▁dist	-1439
▁does	-1440
▁door	-1441
▁duck	-1442
▁else	-1443
▁fake	-1444
▁fine	-1445
▁head	-1446
▁high	-1447
▁hill	-1448
▁inst	-1449
▁land	-1450
▁late	-1451
▁left	-1452
▁lend	-1453
▁meet	-1454
▁mess	-1455
▁path	-1456
▁plan	-1457
▁pudd	-1458
▁road	-1459
▁same	-1460
▁side	-1461
▁sign	-1462
▁stay	-1463
▁swim	-1464
▁talk	-1465
▁tall	-1466
▁trou	-1467
▁true	-1468
▁turn	-1469
▁used	-1470
▁wise	-1471
▁wore	-1472
anding	-1473
cogniz	-1474
repeat	-1475
▁There	-1476
▁alone	-1477
▁avail	-1478
▁chore	-1479
▁climb	-1480
▁color	-1481
▁enjoy	-1482
▁forth	-1483
▁grant	-1484
▁great	-1485
▁light	-1486
▁looks	-1487
▁lunch	-1488
▁noise	-1489
▁plate	-1490
▁quiet	-1491
▁radio	-1492
▁relie	-1493
▁spoon	-1494
▁super	-1495
▁tired	-1496
▁today	-1497
▁tough	-1498
▁truck	-1499
▁watch	-1500
▁where	-1501
▁woman	-1502
▁world	-1503
▁years	-1504
gusting	-1505
ppeared	-1506
▁Inside	-1507
▁Oliver	-1508
▁advent	-1509
▁advice	-1510
▁bright	-1511
▁celebr	-1512
▁dinner	-1513
▁embarr	-1514
▁enough	-1515
▁garage	-1516
▁higher	-1517
▁lesson	-1518
▁meadow	-1519
▁myster	-1520
▁plants	-1521
▁polite	-1522
▁pushed	-1523
▁sailed	-1524
▁search	-1525
▁second	-1526
▁seemed	-1527
▁silver	-1528
▁slowly	-1529
▁trying	-1530
▁window	-1531
▁wished	-1532
▁ancient	-1533
▁country	-1534
▁covered	-1535
▁getting	-1536
▁looking	-1537
▁problem	-1538
▁pushing	-1539
▁receive	-1540
▁sharing	-1541
▁showing	-1542
▁stretch	-1543
▁towards	-1544
▁underst	-1545
▁without	-1546
▁worried	-1547
▁anything	-1548
▁backyard	-1549
▁birdcage	-1550
▁cherries	-1551
▁graceful	-1552
▁laughing	-1553
▁pictures	-1554
▁recogniz	-1555
▁standing	-1556
▁available	-1557
▁neighbors	-1558
▁sometimes	-1559
▁disgusting	-1560
▁everywhere	-1561
▁mysterious	-1562
▁embarrassed	-1563
Be	-1564
If	-1565
Me	-1566
My	-1567
Of	-1568
We	-1569
af	-1570
ee	-1571
gy	-1572
iq	-1573
ks	-1574
ms	-1575
oc	-1576
ru	-1577
sc	-1578
tr	-1579
wl	-1580
xi	-1581
!",	-1582
!".	-1583
Hel	-1584
Mom	-1585
Now	-1586
The	-1587
Wow	-1588
aby	-1589
arp	-1590
asp	-1591
auc	-1592
bow	-1593
ead	-1594
eaf	-1595
elf	-1596
erv	-1597
ext	-1598
fit	-1599
ger	-1600
gin	-1601
got	-1602
gum	-1603
igg	-1604
ion	-1605
ire	-1606
kay	-1607
not	-1608
oin	-1609
oth	-1610
tur	-1611
ude	-1612
ult	-1613
ulu	-1614
œOh	-1615
œhi	-1616
▁If	-1617
▁Wh	-1618
▁dr	-1619
▁ge	-1620
▁gi	-1621
▁gu	-1622
▁pa	-1623
▁ra	-1624
▁us	-1625
Help	-1626
Letâ	-1627
Look	-1628
Meow	-1629
Sure	-1630
Well	-1631
ager	-1632
ames	-1633
arsh	-1634
ased	-1635
bled	-1636
body	-1637
cess	-1638
eeze	-1639
epar	-1640
ered	-1641
fort	-1642
head	-1643
ideo	-1644
iest	-1645
ings	-1646
ique	-1647
isty	-1648
izzy	-1649
lect	-1650
leep	-1651
less	-1652
lexi	-1653
ling	-1654
ming	-1655
ness	-1656
ones	-1657
read	-1658
reet	-1659
rupt	-1660
ured	-1661
ween	-1662
œCan	-1663
œYes	-1664
▁Caw	-1665
▁Mom	-1666
▁Mum	-1667
▁bag	-1668
▁bel	-1669
▁bow	-1670
▁con	-1671
▁cry	-1672
▁eas	-1673
▁esc	-1674
▁fac	-1675
▁hun	-1676
▁inv	-1677
▁isn	-1678
▁jug	-1679
▁leg	-1680
▁mug	-1681
▁ori	-1682
▁pee	-1683
▁rot	-1684
▁say	-1685
▁sew	-1686
▁won	-1687
Where	-1688
acher	-1689
aight	-1690
anced	-1691
anger	-1692
arket	-1693
asped	-1694
ative	-1695
aucet	-1696
ening	-1697
ginal	-1698
icult	-1699
idden	-1700
irsty	-1701
isted	-1702
ocked	-1703
ourse	-1704
place	-1705
uched	-1706
ucket	-1707
urbed	-1708
urple	-1709
œLetâ	-1710
▁Andy	-1711
▁Letâ	-1712
▁Lulu	-1713
▁Next	-1714
▁ador	-1715
▁baby	-1716
▁bite	-1717
▁blew	-1718
▁coat	-1719
▁cook	-1720
▁deaf	-1721
▁disa	-1722
▁donâ	-1723
▁farm	-1724
▁fear	-1725
▁foot	-1726
▁gigg	-1727
▁glad	-1728
▁goal	-1729
▁held	-1730
▁imag	-1731
▁join	-1732
▁nerv	-1733
▁nosy	-1734
▁obed	-1735
▁okay	-1736
▁once	-1737
▁perm	-1738
▁pile	-1739
▁read	-1740
▁sail	-1741
▁sand	-1742
▁scre	-1743
▁seek	-1744
▁self	-1745
▁sent	-1746
▁sick	-1747
▁sitt	-1748
▁spot	-1749
▁such	-1750
▁swam	-1751
▁tell	-1752
▁test	-1753
▁tick	-1754
▁walk	-1755
▁wasn	-1756
▁ways	-1757
▁weep	-1758
▁wipe	-1759
agreed	-1760
ourite	-1761
œThank	-1762
▁Later	-1763
▁Their	-1764
▁Today	-1765
▁agree	-1766
▁ahead	-1767
▁bring	-1768
▁dance	-1769
▁dizzy	-1770
▁doing	-1771
▁drank	-1772
▁event	-1773
▁fixed	-1774
▁flexi	-1775
▁games	-1776
▁given	-1777
▁harsh	-1778
▁heavy	-1779
▁hurts	-1780
▁inter	-1781
▁later	-1782
▁laugh	-1783
▁makes	-1784
▁might	-1785
▁mixed	-1786
▁mount	-1787
▁owner	-1788
▁raced	-1789
▁raked	-1790
▁retur	-1791
▁river	-1792
▁separ	-1793
▁sharp	-1794
▁shell	-1795
▁sleep	-1796
▁smoke	-1797
▁steal	-1798
▁table	-1799
▁teach	-1800
▁trust	-1801
▁turns	-1802
▁video	-1803
▁wants	-1804
▁waved	-1805
▁wings	-1806
lective	-1807
▁Jimmyâ	-1808
▁amazed	-1809
▁barked	-1810
▁bigger	-1811
▁broken	-1812
▁bucket	-1813
▁bushes	-1814
▁cannot	-1815
▁chores	-1816
▁closed	-1817
▁colour	-1818
▁course	-1819
▁dreams	-1820
▁driver	-1821
▁escape	-1822
▁faucet	-1823
▁forgot	-1824
▁freeze	-1825
▁fright	-1826
▁gasped	-1827
▁giving	-1828
▁handed	-1829
▁harder	-1830
▁hidden	-1831
▁humble	-1832
▁hungry	-1833
▁intere	-1834
▁kissed	-1835
▁learnt	-1836
▁lively	-1837
▁lovely	-1838
▁making	-1839
▁nobody	-1840
▁puddle	-1841
▁purple	-1842
▁reward	-1843
▁secret	-1844
▁sneeze	-1845
▁sounds	-1846
▁spider	-1847
▁spread	-1848
▁stones	-1849
▁street	-1850
▁string	-1851
▁twisty	-1852
▁unique	-1853
▁wagged	-1854
▁warned	-1855
▁wealth	-1856
▁welcom	-1857
angerous	-1858
fortable	-1859
▁Finally	-1860
▁between	-1861
▁cookies	-1862
▁couldnâ	-1863
▁delight	-1864
▁falling	-1865
▁giggled	-1866
▁granted	-1867
▁heavier	-1868
▁instead	-1869
▁morning	-1870
▁nervous	-1871
▁nothing	-1872
▁pointed	-1873
▁rainbow	-1874
▁realize	-1875
▁selfish	-1876
▁shelves	-1877
▁shining	-1878
▁sitting	-1879
▁spiders	-1880
▁sprayed	-1881
▁stories	-1882
▁talking	-1883
▁teacher	-1884
▁thirsty	-1885
▁touched	-1886
▁twisted	-1887
▁waiting	-1888
▁warning	-1889
▁welcome	-1890
▁zipping	-1891
▁adorable	-1892
▁careless	-1893
▁clearing	-1894
▁colorful	-1895
▁creative	-1896
▁delicate	-1897
▁flexible	-1898
▁gathered	-1899
▁matching	-1900
▁mountain	-1901
▁obedient	-1902
▁original	-1903
▁pointing	-1904
▁relieved	-1905
▁straight	-1906
▁swimming	-1907
▁troubled	-1908
▁watching	-1909
▁wondered	-1910
▁bubblegum	-1911
▁celebrate	-1912
▁delicious	-1913
▁difficult	-1914
▁disagreed	-1915
▁disturbed	-1916
▁excitedly	-1917
▁favourite	-1918
▁interrupt	-1919
▁strangers	-1920
▁surprised	-1921
▁adventures	-1922
▁eventually	-1923
▁explaining	-1924
▁recognized	-1925
▁reflective	-1926
▁strawberry	-1927
▁understand	-1928
▁disappeared	-1929
▁interesting	-1930
▁strawberries	-1931
'.	-1932
Go	-1933
Jo	-1934
ap	-1935
bj	-1936
cc	-1937
ew	-1938
ex	-1939
ey	-1940
ge	-1941
▁	-1942
e	-1943
a	-1944
t	-1945
h	-1946
o	-1947
n	-1948
i	-1949
d	-1950
s	-1951
r	-1952
l	-1953
w	-1954
y	-1955
u	-1956
m	-1957
.	-1958
p	-1959
g	-1960
c	-1961
f	-1962
b	-1963
,	-1964
k	-1965
T	-1966
v	-1967
"	-1968
S	-1969
H	-1970
I	-1971
O	-1972
!	-1973
'	-1974
L	-1975
x	-1976
B	-1977
A	-1978
M	-1979
J	-1980
â	-1981
€	-1982
z	-1983
W	-1984
E	-1985
?	-1986
j	-1987
C	-1988
F	-1989
N	-1990
D	-1991
Y	-1992
œ	-1993
q	-1994
-	-1995
G	-1996
